<?xml version="1.0"?>
<opencv_storage>
<stage8>
  <maxWeakCount>6</maxWeakCount>
  <stageThreshold>-2.7126324176788330e+000</stageThreshold>
  <weakClassifiers>
    <_>
      <internalNodes>
        0 -1 16512 -2.6992785930633545e-001</internalNodes>
      <leafValues>
        -4.4776119291782379e-002 -9.7270172834396362e-001</leafValues></_>
    <_>
      <internalNodes>
        0 -1 78118 2.1354667842388153e-002</internalNodes>
      <leafValues>
        -8.6807525157928467e-001 6.7182630300521851e-001</leafValues></_>
    <_>
      <internalNodes>
        0 -1 21777 -2.5173544883728027e-002</internalNodes>
      <leafValues>
        7.6797866821289063e-001 -7.0149892568588257e-001</leafValues></_>
    <_>
      <internalNodes>
        0 -1 4737 2.3644994944334030e-002</internalNodes>
      <leafValues>
        -8.9662450551986694e-001 4.6687191724777222e-001</leafValues></_>
    <_>
      <internalNodes>
        0 -1 61325 -2.3025486734695733e-004</internalNodes>
      <leafValues>
        3.7809264659881592e-001 -8.8495510816574097e-001</leafValues></_>
    <_>
      <internalNodes>
        0 -1 58443 -7.5307820225134492e-005</internalNodes>
      <leafValues>
        3.4817534685134888e-001 -8.5049635171890259e-001</leafValues></_></weakClassifiers></stage8>
</opencv_storage>
